TRT-100700-EntropyCalibration2
images: 3bf80000
input: 3e17a912
onnx::Mul_129: 3c010a14
onnx::Conv_130: 3e1a2619
input.4: 3e74ebfd
onnx::Mul_132: 3c010a14
onnx::Conv_133: 3e1970a3
input.8: 3e1b16d1
onnx::Mul_135: 3c010a14
onnx::Split_136: 3d4324ea
onnx::Concat_137: 3cbf573d
input.12: 3d028168
input.16: 3dbc7608
onnx::Mul_140: 3c010a14
onnx::Conv_141: 3d90e969
input.20: 3d7cc15b
onnx::Mul_143: 3c010a14
onnx::Add_144: 3d6dfa74
onnx::Concat_145: 3d837ac8
input.24: 3d93d90c
input.28: 3d81215e
onnx::Mul_148: 3c0213b5
onnx::Conv_149: 3d00d32d
input.32: 3d1ccda8
onnx::Mul_151: 3bfd63ed
onnx::Conv_152: 3c91d754
input.36: 3d40eac1
onnx::Mul_154: 3bfcf82a
onnx::Split_155: 3cb209f0
onnx::Concat_156: 3ca34d21
input.40: 3c726be2
input.44: 3d26ce60
onnx::Mul_159: 3bfaf070
onnx::Conv_160: 3c9b5f35
input.48: 3d15036a
onnx::Mul_162: 3bf9f24e
onnx::Add_163: 3ca524e5
input.52: 3cd914b8
input.56: 3d249b1f
onnx::Mul_166: 3bfe99c7
onnx::Conv_167: 3c8a4f92
input.60: 3d52dfa5
onnx::Mul_169: 3c000a25
onnx::Add_170: 3d2867b9
onnx::Concat_171: 3d5619e6
input.64: 3d10abe4
input.68: 3d49486b
onnx::Mul_174: 3c027441
onnx::Conv_175: 3cc4ad61
input.72: 3d4daa3e
onnx::Mul_177: 3c0243c5
onnx::Conv_178: 3cb2e9f0
input.76: 3d713250
onnx::Mul_180: 3c010cfe
onnx::Split_181: 3cc27a1a
onnx::Concat_182: 3d01836d
input.80: 3ca6c45d
input.84: 3d72dd8b
onnx::Mul_185: 3c03e81e
onnx::Conv_186: 3c9ad225
input.88: 3d490d54
onnx::Mul_188: 3c0c89c7
onnx::Add_189: 3cd38bb1
input.92: 3d63fba3
input.96: 3d5283d8
onnx::Mul_192: 3c00fb22
onnx::Conv_193: 3cd4ffdd
input.100: 3dbfd933
onnx::Mul_195: 3c011170
onnx::Add_196: 3d2700af
onnx::Concat_197: 3dbb8b7d
input.104: 3d269ade
input.108: 3d5bb310
onnx::Mul_200: 3c00ee49
onnx::Conv_201: 3cb5509b
input.112: 3d762f64
onnx::Mul_203: 3c00efbd
onnx::Conv_204: 3c914e12
input.116: 3d89e097
onnx::Mul_206: 3c010f36
onnx::Split_207: 3cd3edb9
onnx::Concat_208: 3cd3edb9
input.120: 3ca789da
input.124: 3d9edcf8
onnx::Mul_211: 3c00fd46
onnx::Conv_212: 3d0302cd
input.128: 3dcc5c77
onnx::Mul_214: 3c0538fe
onnx::Add_215: 3d43efc1
onnx::Concat_216: 3d8fb948
input.132: 3cff7950
input.136: 3da8600c
onnx::Mul_219: 3c00fee0
onnx::Conv_220: 3cea2a1a
input.140: 3d5bb0cb
onnx::Mul_222: 3c00b9cf
onnx::MaxPool_223: 3d40e6b6
onnx::MaxPool_224: 3d40e6b6
onnx::MaxPool_225: 3d40e6b6
onnx::Concat_226: 3d40e6b6
input.144: 3d91ba87
input.148: 3d77c4bb
onnx::Mul_229: 3c00ff66
onnx::Resize_230: 3ca7c073
onnx::Concat_235: 3ca7c073
input.152: 3cb5509b
input.156: 3d87de25
onnx::Mul_238: 3c010902
onnx::Split_239: 3cc0cdf0
onnx::Concat_240: 3cc0cdf0
input.160: 3cc05b7c
input.164: 3d825555
onnx::Mul_243: 3c009566
onnx::Conv_244: 3c8148fd
input.168: 3d817de8
onnx::Mul_246: 3c00fd26
onnx::Concat_247: 3ca530cb
input.172: 3cc0cdf0
input.176: 3d8db382
onnx::Mul_250: 3c0101c7
onnx::Resize_251: 3cb36e48
onnx::Concat_256: 3cb36e48
input.180: 3cc4ad61
input.184: 3d5639cd
onnx::Mul_259: 3c0055a0
onnx::Split_260: 3c924b2f
onnx::Concat_261: 3cc2ba38
input.188: 3c8828d0
input.192: 3d43c2e8
onnx::Mul_264: 3bf6e1e0
onnx::Conv_265: 3cb2eda5
input.196: 3d6f668c
onnx::Mul_267: 3c007712
onnx::Concat_268: 3ca443d4
input.200: 3ca443d4
input.204: 3d6af731
onnx::Mul_271: 3bff02bb
onnx::Conv_272: 3c72bf8c
input.208: 3d7031a0
onnx::Mul_274: 3c00e8c9
onnx::Concat_275: 3c995221
input.212: 3cea2517
input.216: 3d7e6b6e
onnx::Mul_278: 3c01075a
onnx::Split_279: 3cb3222e
onnx::Concat_280: 3cb3222e
input.220: 3cd4dedb
input.224: 3d7fd1fe
onnx::Mul_283: 3c0059ab
onnx::Conv_284: 3c90bb0d
input.228: 3db1dd6f
onnx::Mul_286: 3c021383
onnx::Concat_287: 3d282245
input.232: 3cebe645
input.236: 3dcdae0f
onnx::Mul_290: 3c01915f
onnx::Conv_291: 3c61efec
input.240: 3d892b2c
onnx::Mul_293: 3c00c47d
onnx::Concat_294: 3cb3a4ab
input.244: 3cb3a4ab
input.248: 3d83250d
onnx::Mul_297: 3c010ffd
onnx::Split_298: 3cd41019
onnx::Concat_299: 3cd41019
input.252: 3c57d423
input.256: 3d93762c
onnx::Mul_302: 3c00cc4b
onnx::Conv_303: 3c80c991
input.260: 3dc12423
onnx::Mul_305: 3c021420
onnx::Concat_306: 3d12a03c
input.264: 3cd51375
input.268: 3dcf9fae
onnx::Mul_309: 3c011094
onnx::Conv_310: 3ce91c88
input.272: 3db46910
onnx::Mul_313: 3c00e3ed
onnx::Conv_314: 3cb246d1
input.276: 3e62f251
onnx::Mul_316: 3c010a14
onnx::Conv_317: 3dc23f29
onnx::Concat_318: 3df12461
input.280: 3d93f587
onnx::Mul_320: 3c00f074
onnx::Conv_321: 3ceb04df
input.284: 3e2d7dbe
onnx::Mul_323: 3c010a14
onnx::Conv_324: 3dc27c38
onnx::Concat_325: 3e40b681
onnx::Reshape_326: 3e3c1f44
input.288: 3db3401a
onnx::Mul_328: 3c0313d0
onnx::Conv_329: 3d10a3f3
input.292: 3e81e832
onnx::Mul_331: 3c010a14
onnx::Conv_332: 3dc2fba6
onnx::Concat_333: 3dd1b63c
input.296: 3da2d721
onnx::Mul_335: 3c0110ef
onnx::Conv_336: 3ce630bc
input.300: 3e7569a3
onnx::Mul_338: 3c010a14
onnx::Conv_339: 3dd1d2bb
onnx::Concat_340: 3e72483c
onnx::Reshape_341: 3e67d23e
input.304: 3dd2c124
onnx::Mul_343: 3c0417c4
onnx::Conv_344: 3d454ca4
input.308: 3e8b9336
onnx::Mul_346: 3c010a14
onnx::Conv_347: 3e25145c
onnx::Concat_348: 3dc9e6c2
input.312: 3dd916d8
onnx::Mul_350: 3c021390
onnx::Conv_351: 3d2970f0
input.316: 3e966b29
onnx::Mul_353: 3c010a14
onnx::Conv_354: 3dc663d4
onnx::Concat_355: 3e7a81fa
onnx::Reshape_356: 3e71a02a
onnx::Concat_363: 3e3c1f44
onnx::Concat_370: 3e67d23e
onnx::Concat_377: 3e71a02a
x_cat: 3e61d7f6
onnx::Reshape_379: 3dec750c
onnx::Sigmoid_380: 3e67d23e
onnx::Transpose_390: 3dec750c
onnx::Softmax_391: 3dec750c
ONNXTRT_flattenTensor_output: 3dec750c
Softmax_221_output: 3bb8756a
onnx::Transpose_392: 3bb8756a
input.320: 3bb8756a
onnx::Reshape_394: 3de366bd
onnx::Shape_400: 3de366bd
onnx::Div_419: 3fae0a15
ONNXTRT_Broadcast_96_output: 3e810a14
onnx::Mul_424_output: 3e810a14
onnx::Concat_425: 40b76ffc
onnx::Concat_421: 3f2e0a15
onnx::Add_416: 3f1fd4c9
onnx::Add_418: 3f21a051
onnx::Concat_426: 3b3558fc
onnx::Add_417_output: 3f204a85
onnx::Concat_422: 3e685d0d
output0: 40b76ffc
onnx::Div_420_output: 3c810a14
onnx::Sub_415_output: 3f204a85
onnx::Mul_423: 3f2e0a15
onnx::Sub_411: 3df9577c
onnx::Add_414: 3de2c8a0
ONNXTRT_Broadcast_output: 3c810a14
